TRT-101401-EntropyCalibration2
images: 3c008912
/model.0/conv/Conv_output_0: 3eff1c0a
/model.0/act/Sigmoid_output_0: 3c010a14
/model.0/act/Mul_output_0: 3e939d39
/model.1/conv/Conv_output_0: 3f28ca4c
/model.1/act/Sigmoid_output_0: 3c010a14
/model.1/act/Mul_output_0: 3eba6a06
/model.2/cv1/conv/Conv_output_0: 3ec1a76b
/model.2/cv1/act/Sigmoid_output_0: 3c010a14
/model.2/cv1/act/Mul_output_0: 3e231132
/model.22/Transpose_output_0: 3fa0cb8f
/model.22/ConstantOfShape_1_output_0: 0
/model.22/cv2.2/cv2.2.1/act/Mul_output_0: 3dc3a87b
/model.22/Reshape_17_output_0: 3e9f4871
/model.22/Unsqueeze_12_output_0: 3fa0cb8f
/model.22/dfl/conv/Conv_output_0: 3df16e65
/model.2/Split_output_0: 3e231132
/model.22/dfl/Transpose_1_output_0: 3bdd7218
/model.22/Unsqueeze_10_output_0: 3e9f4871
/model.22/Concat_22_output_0: 3fa0cb8f
/model.2/Split_output_1: 3dc91a79
/model.2/m.0/cv1/conv/Conv_output_0: 3ea4d2d4
/model.2/m.0/cv1/act/Sigmoid_output_0: 3c010a14
/model.2/m.0/cv1/act/Mul_output_0: 3e95282d
/model.2/m.0/cv2/conv/Conv_output_0: 3ec9e866
/model.2/m.0/cv2/act/Sigmoid_output_0: 3c010a14
/model.2/m.0/cv2/act/Mul_output_0: 3e23ade2
/model.2/m.0/Add_output_0: 3e41aa04
/model.2/Concat_output_0: 3e114b9a
/model.2/cv2/conv/Conv_output_0: 3e4d66ee
/model.2/cv2/act/Sigmoid_output_0: 3c00f1e2
/model.2/cv2/act/Mul_output_0: 3d294b8a
/model.3/conv/Conv_output_0: 3d999844
/model.3/act/Sigmoid_output_0: 3c0080e5
/model.3/act/Mul_output_0: 3d11d9db
/model.4/cv1/conv/Conv_output_0: 3dd8ad26
/model.4/cv1/act/Sigmoid_output_0: 3c00f179
/model.4/cv1/act/Mul_output_0: 3d28de05
/model.22/dfl/Reshape_1_output_0: 3df16e65
output0: 412106be
/model.22/Add_5_output_0: 3e010a14
/model.21/cv2/act/Sigmoid_output_0: 3c01121a
/model.22/Unsqueeze_9_output_0: 3e9f4871
/model.22/dfl/Softmax_output_0: 3bdd7218
/model.4/Split_output_0: 3d28de05
/model.22/Concat_24_output_0: 3fa106be
ONNXTRT_flattenTensor_output: 3e63c311
/model.22/cv2.1/cv2.1.1/act/Sigmoid_output_0: 3c0111e9
/model.4/Split_output_1: 3cd3869f
/model.4/m.0/cv1/conv/Conv_output_0: 3d8e9a96
/model.4/m.0/cv1/act/Sigmoid_output_0: 3c00ad86
/model.4/m.0/cv1/act/Mul_output_0: 3cd45992
/model.4/m.0/cv2/conv/Conv_output_0: 3d942464
/model.4/m.0/cv2/act/Sigmoid_output_0: 3c00b195
/model.4/m.0/cv2/act/Mul_output_0: 3cc064c7
/model.4/m.0/Add_output_0: 3d4f22e7
/model.4/m.1/cv1/conv/Conv_output_0: 3d6cbc5d
/model.4/m.1/cv1/act/Sigmoid_output_0: 3c008b24
/model.4/m.1/cv1/act/Mul_output_0: 3c925e80
/model.4/m.1/cv2/conv/Conv_output_0: 3dc4488a
/model.4/m.1/cv2/act/Sigmoid_output_0: 3c011222
/model.4/m.1/cv2/act/Mul_output_0: 3d271341
/model.4/m.1/Add_output_0: 3dbc22b8
/model.4/Concat_output_0: 3d6db286
/model.4/cv2/conv/Conv_output_0: 3da028a6
/model.4/cv2/act/Sigmoid_output_0: 3c00ecb7
/model.4/cv2/act/Mul_output_0: 3cc259b3
/model.5/conv/Conv_output_0: 3dae1303
/model.5/act/Sigmoid_output_0: 3c0090dc
/model.5/act/Mul_output_0: 3d02ee5d
/model.6/cv1/conv/Conv_output_0: 3db88f58
/model.6/cv1/act/Sigmoid_output_0: 3c00f012
/model.6/cv1/act/Mul_output_0: 3d45d461
/model.22/cv2.1/cv2.1.0/act/Sigmoid_output_0: 3c010fd4
/model.19/act/Sigmoid_output_0: 3c00ea09
/model.22/Split_1_output_1: 3ecb9048
/model.21/cv1/act/Sigmoid_output_0: 3c011105
ONNXTRT_ShapeShuffle_187_output: 3c010a14
/model.22/Add_10_output_0: 3fa1a8ef
/model.6/Split_output_0: 3d45d461
/model.22/Constant_56_output_0_output: 3c810a14
ONNXTRT_ShapeShuffle_280_output: 3c010a14
/model.22/Range_2_output_0: 3f1f4871
/model.6/Split_output_1: 3cd24970
/model.6/m.0/cv1/conv/Conv_output_0: 3d9a73e6
/model.6/m.0/cv1/act/Sigmoid_output_0: 3c00dd87
/model.6/m.0/cv1/act/Mul_output_0: 3ca5dbe2
/model.6/m.0/cv2/conv/Conv_output_0: 3d9543a0
/model.6/m.0/cv2/act/Sigmoid_output_0: 3c011136
/model.6/m.0/cv2/act/Mul_output_0: 3cc50877
/model.6/m.0/Add_output_0: 3d8fde70
/model.6/m.1/cv1/conv/Conv_output_0: 3d89cbfe
/model.6/m.1/cv1/act/Sigmoid_output_0: 3c008c93
/model.6/m.1/cv1/act/Mul_output_0: 3c1e93cf
/model.6/m.1/cv2/conv/Conv_output_0: 3dd97e7d
/model.6/m.1/cv2/act/Sigmoid_output_0: 3c011222
/model.6/m.1/cv2/act/Mul_output_0: 3d289c04
/model.6/m.1/Add_output_0: 3daacb05
/model.6/Concat_output_0: 3d47fb3e
/model.6/cv2/conv/Conv_output_0: 3d9d4c06
/model.6/cv2/act/Sigmoid_output_0: 3c010c69
/model.6/cv2/act/Mul_output_0: 3d028824
/model.7/conv/Conv_output_0: 3db5c614
/model.7/act/Sigmoid_output_0: 3c0111f7
/model.7/act/Mul_output_0: 3d029dc7
/model.8/cv1/conv/Conv_output_0: 3df15887
/model.8/cv1/act/Sigmoid_output_0: 3c021423
/model.8/cv1/act/Mul_output_0: 3d246285
/model.22/Reshape_2_output_0: 3e4b576a
/model.21/Split_output_0: 3d117307
/model.22/cv3.1/cv3.1.0/conv/Conv_output_0: 3e0755ba
/model.22/cv3.2/cv3.2.2/Conv_output_0: 3e6b8881
/model.22/Expand_5_output_0: 3e9f4871
/model.22/cv2.2/cv2.2.2/Conv_output_0: 3e27292a
/model.8/Split_output_0: 3d246285
/model.21/Split_output_1: 3d13c071
/model.22/Concat_1_output_0: 3ead9fb4
/model.21/m.0/cv1/conv/Conv_output_0: 3da3e559
/model.8/Split_output_1: 3ce73fd9
/model.8/m.0/cv1/conv/Conv_output_0: 3df1eff5
/model.8/m.0/cv1/act/Sigmoid_output_0: 3c00613b
/model.8/m.0/cv1/act/Mul_output_0: 3d273f19
/model.8/m.0/cv2/conv/Conv_output_0: 3e099a8a
/model.8/m.0/cv2/act/Sigmoid_output_0: 3c011216
/model.8/m.0/cv2/act/Mul_output_0: 3d6bf535
/model.8/m.0/Add_output_0: 3dc0980a
/model.8/Concat_output_0: 3d671cda
/model.8/cv2/conv/Conv_output_0: 3dc68d48
/model.8/cv2/act/Sigmoid_output_0: 3c00f11a
/model.8/cv2/act/Mul_output_0: 3d255fbe
/model.9/cv1/conv/Conv_output_0: 3da97fbc
/model.9/cv1/act/Sigmoid_output_0: 3c00d04a
/model.9/cv1/act/Mul_output_0: 3d6c5a5d
/model.9/m/MaxPool_output_0: 3d6c5a5d
/model.9/m_1/MaxPool_output_0: 3d6c5a5d
/model.9/m_2/MaxPool_output_0: 3d6c5a5d
/model.9/Concat_output_0: 3dc1c711
/model.9/cv2/conv/Conv_output_0: 3df121b5
/model.9/cv2/act/Sigmoid_output_0: 3c004950
/model.9/cv2/act/Mul_output_0: 3ce8ccaf
/model.10/Resize_output_0: 3ce8ccaf
/model.11/Concat_output_0: 3d293a64
/model.12/cv1/conv/Conv_output_0: 3db9e018
/model.12/cv1/act/Sigmoid_output_0: 3c004a28
/model.12/cv1/act/Mul_output_0: 3d01b7a9
/model.22/cv3.2/cv3.2.1/act/Sigmoid_output_0: 3c010a14
/model.22/Expand_4_output_0: 3e9f4871
/model.22/Reshape_1_output_0: 3ead9fb4
/model.19/conv/Conv_output_0: 3d86fc7f
/model.22/Expand_2_output_0: 3f204a85
/model.22/cv3.2/cv3.2.1/conv/Conv_output_0: 3e777799
/model.12/Split_output_0: 3d111202
/model.22/Sub_1_output_0: 3e73609a
/model.22/Div_1_output_0: 3fa38a89
/model.22/cv2.1/cv2.1.1/act/Mul_output_0: 3d958a1e
/model.12/Split_output_1: 3d01b7a9
/model.12/m.0/cv1/conv/Conv_output_0: 3dac372f
/model.12/m.0/cv1/act/Sigmoid_output_0: 3c001768
/model.12/m.0/cv1/act/Mul_output_0: 3c5b0da4
/model.12/m.0/cv2/conv/Conv_output_0: 3d91ca65
/model.12/m.0/cv2/act/Sigmoid_output_0: 3c006428
/model.12/m.0/cv2/act/Mul_output_0: 3ce75fe4
/model.12/Concat_output_0: 3d01b7a9
/model.12/cv2/conv/Conv_output_0: 3daad67b
/model.12/cv2/act/Sigmoid_output_0: 3bff6c69
/model.12/cv2/act/Mul_output_0: 3ca4b56d
/model.13/Resize_output_0: 3ca4b56d
/model.14/Concat_output_0: 3d016dd9
/model.15/cv1/conv/Conv_output_0: 3da0099b
/model.15/cv1/act/Sigmoid_output_0: 3c00bb1c
/model.15/cv1/act/Mul_output_0: 3ce99c88
/model.22/cv2.1/cv2.1.0/act/Mul_output_0: 3d40e7f4
/model.21/cv2/act/Mul_output_0: 3d0fe0f6
/model.22/cv2.2/cv2.2.1/conv/Conv_output_0: 3e52f925
/model.22/Slice_output_0: 3df16e65
/model.21/m.0/cv1/act/Sigmoid_output_0: 3c00e8ae
/model.22/Concat_20_output_0: 3e9f4871
/model.15/Split_output_0: 3ce99c88
/model.22/cv2.1/cv2.1.2/Conv_output_0: 3e36491a
/model.22/cv2.2/cv2.2.0/act/Mul_output_0: 3d6b8b28
/model.21/m.0/cv2/conv/Conv_output_0: 3dfda8ca
/model.15/Split_output_1: 3cc0a013
/model.15/m.0/cv1/conv/Conv_output_0: 3d53afcf
/model.15/m.0/cv1/act/Sigmoid_output_0: 3bfdd30d
/model.15/m.0/cv1/act/Mul_output_0: 3d016f22
/model.15/m.0/cv2/conv/Conv_output_0: 3d800eb1
/model.15/m.0/cv2/act/Sigmoid_output_0: 3c00aa03
/model.15/m.0/cv2/act/Mul_output_0: 3cfff949
/model.15/Concat_output_0: 3cbfea06
/model.15/cv2/conv/Conv_output_0: 3d95522d
/model.15/cv2/act/Sigmoid_output_0: 3c00b622
/model.15/cv2/act/Mul_output_0: 3c9243fd
/model.16/conv/Conv_output_0: 3d9ff982
/model.22/cv2.0/cv2.0.0/conv/Conv_output_0: 3db40e61
/model.22/cv3.0/cv3.0.0/conv/Conv_output_0: 3df5caa6
/model.16/act/Sigmoid_output_0: 3c0111c9
/model.22/cv2.0/cv2.0.0/act/Sigmoid_output_0: 3c00ca4d
/model.22/cv3.0/cv3.0.0/act/Sigmoid_output_0: 3c00e2a9
/model.16/act/Mul_output_0: 3cb18712
/model.22/cv2.0/cv2.0.0/act/Mul_output_0: 3d001478
/model.22/cv3.0/cv3.0.0/act/Mul_output_0: 3ceb4574
/model.17/Concat_output_0: 3cb18712
/model.22/cv2.0/cv2.0.1/conv/Conv_output_0: 3e1c2330
/model.22/cv3.0/cv3.0.1/conv/Conv_output_0: 3e7e595c
/model.18/cv1/conv/Conv_output_0: 3da77a8a
/model.22/cv2.0/cv2.0.1/act/Sigmoid_output_0: 3c010a14
/model.22/cv3.0/cv3.0.1/act/Sigmoid_output_0: 3c010a14
/model.18/cv1/act/Sigmoid_output_0: 3c00f0b8
/model.22/cv2.0/cv2.0.1/act/Mul_output_0: 3dc4bc60
/model.22/cv3.0/cv3.0.1/act/Mul_output_0: 3dc7b620
/model.18/cv1/act/Mul_output_0: 3ce7968d
/model.22/cv2.0/cv2.0.2/Conv_output_0: 3e6c616e
/model.22/cv3.0/cv3.0.2/Conv_output_0: 3e9aa77a
/model.22/Reshape_16_output_0: 3e9f4871
/model.22/Reshape_15_output_0: 3e9f4871
/model.22/Transpose_1_output_0: 3e810a14
/model.22/dfl/Reshape_output_0: 3e63c311
/model.22/dfl/Transpose_output_0: 3e63c311
/model.22/Concat_23_output_0: 3e810a14
/model.18/Split_output_0: 3d10dd1a
/model.22/cv2.2/cv2.2.0/act/Sigmoid_output_0: 3c021420
/model.22/cv2.2/cv2.2.0/conv/Conv_output_0: 3dd15c2e
/model.22/Add_8_output_0: 3e810a14
/model.18/Split_output_1: 3d147501
/model.22/Concat_output_0: 3e85b6aa
/model.18/m.0/cv1/conv/Conv_output_0: 3db46ac6
ONNXTRT_Broadcast_202_output: 3b810a14
/model.22/Concat_15_output_0: 3f204a85
/model.18/m.0/cv1/act/Sigmoid_output_0: 3c0537f8
/model.22/Squeeze_2_output_0_output: 3e810a14
/model.22/cv3.2/cv3.2.0/act/Sigmoid_output_0: 3c011166
/model.22/Reshape_7_output_0: 3fa0cb8f
/model.22/cv3.2/cv3.2.0/conv/Conv_output_0: 3ddbcfe4
/model.22/ConstantOfShape_2_output_0: 0
/model.22/cv2.1/cv2.1.1/conv/Conv_output_0: 3e02377d
/model.18/m.0/cv1/act/Mul_output_0: 3cffdb3d
/model.22/Concat_6_output_0: 3e907c6e
/model.21/cv1/act/Mul_output_0: 3ce8863b
ONNXTRT_Broadcast_426_output: 3e810a14
/model.22/Unsqueeze_3_output_0: 3fa0cb8f
ONNXTRT_ShapeShuffle_287_output: 0
/model.18/m.0/cv2/conv/Conv_output_0: 3dca30e8
/model.22/Reshape_8_output_0: 3f204a85
ONNXTRT_Broadcast_292_output: 3e810a14
ONNXTRT_ShapeShuffle_197_output: 3c010a14
/model.22/Constant_10_output_0_output: 0
/model.22/Constant_11_output_0_output: 3c010a14
/model.22/Range_5_output_0: 3e9d4449
/model.22/Expand_3_output_0: 3f204a85
/model.22/cv2.2/cv2.2.1/act/Sigmoid_output_0: 3c010a14
/model.22/Squeeze_1_output_0_output: 3e010a14
/model.21/m.0/cv1/act/Mul_output_0: 3cc095cd
/model.22/Slice_1_output_0: 3df15b7f
/model.22/Concat_2_output_0: 3e4b576a
/model.22/Range_output_0: 3fa04a85
ONNXTRT_ShapeShuffle_104_output: 3c010a14
/model.22/Reshape_13_output_0: 3e9f4871
ONNXTRT_Broadcast_285_output: 3b810a14
ONNXTRT_Broadcast_283_output: 3b810a14
/model.22/Reshape_9_output_0: 3f204a85
/model.22/Sigmoid_output_0: 3bd740df
ONNXTRT_Broadcast_419_output: 3c810a14
/model.22/Unsqueeze_7_output_0: 3f204a85
/model.22/Range_1_output_0: 3fa04a85
ONNXTRT_ShapeShuffle_114_output: 3c010a14
ONNXTRT_Broadcast_200_output: 3b810a14
/model.21/cv1/conv/Conv_output_0: 3db61832
/model.18/m.0/cv2/act/Sigmoid_output_0: 3c01110a
/model.22/Reshape_output_0: 3e85b6aa
/model.22/Constant_12_output_0_output: 3b810a14
ONNXTRT_Broadcast_output: 3b810a14
/model.22/Reshape_4_output_0: 3fa0cb8f
ONNXTRT_Broadcast_119_output: 3b810a14
/model.22/Reshape_3_output_0: 3fa0cb8f
/model.22/cv3.2/cv3.2.0/act/Mul_output_0: 3d2636fa
tmp_refittable_weight_1_output: 0
/model.18/m.0/cv2/act/Mul_output_0: 3ce8ea39
tmp_refittable_weight_output: 0
ONNXTRT_ShapeShuffle_121_output: 0
/model.22/ConstantOfShape_output_0: 0
/model.22/Concat_10_output_0: 3fa0cb8f
/model.22/cv2.1/cv2.1.0/conv/Conv_output_0: 3dcc5428
/model.22/Sub_output_0: 3fa0acde
/model.22/Range_3_output_0: 3f1f4871
/model.18/Concat_output_0: 3d11b193
/model.22/Squeeze_output_0_output: 3d810a14
ONNXTRT_Broadcast_124_output: 3d810a14
/model.22/Add_2_output_0: 3d810a14
ONNXTRT_ShapeShuffle_270_output: 3c010a14
/model.22/cv3.1/cv3.1.0/act/Mul_output_0: 3d0142ee
/model.20/Concat_output_0: 3d02bfcc
/model.18/cv2/conv/Conv_output_0: 3e0cbf2e
/model.22/Reshape_5_output_0: 3fa0cb8f
/model.22/Reshape_6_output_0: 3fa0cb8f
/model.18/cv2/act/Sigmoid_output_0: 3c00ec5a
/model.22/dfl/Softmax_output: 3bdd7218
/model.22/Range_4_output_0: 3e9d4449
/model.21/m.0/cv2/act/Sigmoid_output_0: 3c010f39
/model.21/m.0/cv2/act/Mul_output_0: 3d48d81c
/model.22/cv3.1/cv3.1.1/conv/Conv_output_0: 3eb099bf
tmp_refittable_weight_0_output: 0
ONNXTRT_ShapeShuffle_204_output: 0
/model.22/cv3.1/cv3.1.1/act/Sigmoid_output_0: 3c010a14
/model.22/Add_11_output_0: 40238a89
/model.22/cv3.1/cv3.1.0/act/Sigmoid_output_0: 3c010e1e
/model.22/Split_1_output_0: 3e63c311
/model.22/Unsqueeze_6_output_0: 3f204a85
/model.22/Expand_output_0: 3fa0cb8f
/model.22/Reshape_12_output_0: 3f204a85
/model.22/cv3.2/cv3.2.1/act/Mul_output_0: 3d95a596
/model.22/cv3.1/cv3.1.1/act/Mul_output_0: 3dce855c
/model.22/Reshape_11_output_0: 3f204a85
/model.22/Mul_5_output_0: 412106be
/model.22/cv3.1/cv3.1.2/Conv_output_0: 3ee7e642
/model.19/act/Mul_output_0: 3d02bfcc
/model.21/cv2/conv/Conv_output_0: 3e0f5110
/model.22/Reshape_10_output_0: 3f204a85
/model.22/Unsqueeze_4_output_0: 3fa0cb8f
ONNXTRT_Broadcast_207_output: 3e010a14
/model.21/Concat_output_0: 3d117307
/model.22/Expand_1_output_0: 3fa0cb8f
/model.18/cv2/act/Mul_output_0: 3cc0db11
/model.22/Reshape_14_output_0: 3e9f4871
